0014
0009
0002
FFED
FFF0
0013
0010
FFF7
0007
000C
FFFD
0009
0001
0000
0000
000B
FFF7
FFFE
0009
FFFD
FFFC
FFF5
FFFA
FFF5
000E
FFEE
FFEF
FFFE
FFFD
0001
0015
0010
FFFE
0014
000F
000E
0007
000E
0001
000E
FFF5
0010
0014
FFF6
0013
FFFE
0013
000F
FFF5
FFF9
0007
0012
FFEF
000F
FFFA
000A
FFF3
FFF1
000C
FFFF
0015
FFF7
0013
0014
0015
000A
FFF4
0005
0015
0009
FFF9
FFF8
0006
FFF1
0013
0002
0011
FFEE
0008
FFFD
FFF8
0003
FFEE
0003
000A
FFFA
FFF1
0012
0008
FFF1
000D
000B
000C
0014
0014
FFFC
FFFA
FFFE
0007
FFF1
0009
FFF0
FFFE
0013
FFF7
0002
000B
0012
0008
0000
0005
0014
0008
FFEC
0000
FFF1
0013
FFF6
FFF5
0002
FFF2
0009
0008
FFFB
000F
FFF1
FFF3
FFF3
000A
0009
FFF4
FFF7
FFF8
FFF0
FFEC
0003
FFF6
FFF9
FFFF
000A
FFF7
FFEC
0002
0005
0009
0013
0001
0009
FFEE
0015
0004
FFF0
FFFF
FFF9
FFEB
FFF1
0008
0014
FFF3
FFF7
FFEE
FFF2
FFFA
FFF6
FFF5
000C
FFF5
FFF9
0009
FFFA
000E
0012
0013
FFF1
FFF0
0014
FFF0
0008
0001
FFFD
FFF3
0006
000B
FFED
FFF3
FFF8
0003
0003
FFF0
0004
0012
0002
FFF0
FFF6
0006
FFFB
FFF6
FFFC
000F
0003
FFFE
0006
FFEF
0007
0014
0009
0007
0010
0004
0002
FFFB
FFF8
FFF7
0013
0015
FFF1
FFED
FFF0
FFF6
0014
0007
FFF3
0004
FFF7
000C
FFFC
FFFE
FFEC
0012
FFEF
FFF0
0001
FFF5
000E
FFEC
FFFA
FFEF
0004
0014
FFFA
FFFA
0003
FFF0
000B
0009
FFF4
0012
0008
FFF7
FFF8
FFF6
000D
FFF8
FFEC
0003
000A
0001
000E
FFED
FFF1
FFFC
000D
0002
FFF1
FFF8
0015
0009
FFFC
0014
0015
FFFB
000F
FFF2
0006
FFEE
000D
FFF9
0005
000C
FFF1
FFFF
FFEC
0007
FFF5
FFEB
000C
FFF1
0008
FFFB
FFF1
FFFB
FFF5
FFEF
0004
0001
000B
000A
0006
0005
FFF4
FFF4
0015
0015
FFEF
000D
FFED
FFF3
FFFE
FFFB
0000
FFF1
0015
0014
FFEC
0003
FFEF
000F
FFF0
0004
FFF3
0011
0000
0007
FFFB
0010
FFF3
0005
FFF6
0012
FFF5
000F
FFFA
000E
000B
0015
0001
0010
0006
FFF4
0000
0013
0010
FFF7
FFF9
FFFD
000F
FFEE
000A
0014
FFF2
000C
0003
0015
0013
0008
FFF4
000B
0014
FFFB
0013
000D
FFEF
FFFD
FFF5
FFF6
0000
FFEC
0008
000F
000B
FFF3
FFFA
0013
FFEF
FFF2
0014
0000
FFF5
0010
0008
0014
0004
000E
000A
0000
000A
FFF7
0001
0002
FFF6
FFEC
FFFD
0010
000D
FFF1
0004
0008
FFFC
000D
FFF8
FFFC
FFF6
0013
0011
FFF0
0005
0013
FFF7
FFEE
000B
0009
FFED
000A
FFFE
FFEC
FFFA
FFED
FFF9
FFF6
FFF8
FFF5
000C
0006
000F
0004
FFFD
000C
FFEC
0009
FFF3
0000
0010
0002
FFF1
0004
FFF2
000D
000B
FFFA
FFEC
0000
0002
000E
FFFF
FFFF
FFF6
000E
FFEC
FFF3
FFF1
000A
000B
FFF3
FFF6
FFFE
000D
FFEE
FFFE
0000
000A
FFEB
FFF7
0009
000F
0006
FFF4
0000
FFED
0006
FFFC
FFF7
0003
FFF1
FFFB
FFFD
FFFD
000F
FFF8
FFFC
FFFB
FFEC
FFF7
FFFC
FFFB
0002
FFED
000F
0014
0009
FFF4
FFF8
FFF7
FFED
FFEC
0004
0015
0002
0002
0002
FFF1
FFF7
0012
0010
000A
0011
0010
0013
FFFE
FFF3
0015
0009
000C
FFF8
FFFA
0010
FFEE
FFFD
FFFF
FFF5
0013
FFFF
000D
0006
FFFD
0012
FFFA
FFF2
FFF4
0006
0008
FFF2
000A
FFED
0009
FFF7
0014
0003
FFEF
0012
FFF5
0014
000B
FFF0
0013
0007
FFF6
FFEF
0005
000E
0010
0011
000F
0013
FFFB
FFF0
0006
FFF4
FFF0
FFF9
0004
000F
0015
0007
FFF0
FFF4
FFED
000A
0008
FFF5
0003
FFEF
FFF2
FFEF
FFFC
0012
0012
000B
0000
0008
FFEC
0006
0009
FFF8
0014
0001
FFF8
FFF0
FFEF
0010
000C
0015
0014
0014
0009
FFFE
0009
FFFB
0002
0012
000B
0009
0010
0003
FFF5
FFF8
FFEF
FFFF
FFF7
000F
000F
0005
000E
0010
FFEB
000C
0007
FFFC
FFF6
FFF9
0005
FFFE
FFF5
0002
FFF9
0015
FFFA
FFFD
0008
FFFD
FFF6
FFF3
FFED
0013
FFFE
FFED
0002
0001
0015
FFEE
FFEF
FFFD
FFF2
FFF8
FFF5
FFF8
FFF4
0012
0002
0012
0011
FFFB
FFFB
FFFE
FFF4
0011
0013
FFFD
FFFC
0005
0003
FFFC
0006
FFF7
FFFB
FFF5
0001
0015
0007
0013
0009
FFF7
FFF2
0006
0010
0007
FFEF
FFFC
FFF1
FFFA
FFFC
0015
0015
000B
FFF4
0008
0003
FFF9
FFFC
0012
0010
FFFA
FFFF
0000
FFFA
FFF7
FFFC
FFF3
0013
0008
FFED
000A
FFFF
0013
0008
FFFA
FFF2
0011
FFF2
FFFA
0003
FFFC
0005
0004
0004
FFFB
FFFB
FFEE
0000
0008
FFF7
FFFD
FFFF
0014
0005
FFFF
FFEB
FFF1
0000
0012
FFFF
FFFE
0002
0006
000E
0004
0000
FFF3
0004
FFF1
FFF2
0005
FFED
0005
FFF1
0015
0006
0003
0004
FFEC
FFF2
FFF8
0014
FFFE
FFFC
000E
0014
FFF1
FFFD
FFF3
0006
FFED
0006
FFF4
FFFB
FFEE
000A
FFEC
000C
0011
0014
0002
000F
FFF9
FFF4
000A
FFF0
0013
FFF3
000F
0015
0010
0010
000F
FFF2
FFF0
0002
000F
FFF5
FFEF
0002
FFED
0012
FFF4
000A
FFFE
FFEC
FFFD
FFF4
000A
000E
0006
FFF7
FFF8
FFEC
0005
0010
FFF4
0013
FFF6
FFF4
FFF5
FFF6
FFFA
FFFE
0001
0001
0012
FFFD
0008
FFF8
FFFA
FFF6
FFFB
FFF2
FFFC
000D
0012
FFFB
FFFD
0008
FFF5
0006
0009
FFFB
FFED
0015
000E
0011
0006
FFF1
FFFF
FFF9
0009
0015
0000
0011
FFFE
0001
FFFE
FFF4
0005
000D
FFFE
0007
FFF5
0006
FFF6
FFEE
FFFA
000A
FFED
FFFE
FFF6
FFFC
FFF9
0007
000E
FFEB
0007
FFF7
0006
FFF0
FFFD
0001
0003
000E
0013
000C
0010
0014
0001
FFF2
FFF7
000F
0004
FFF9
0011
FFF0
0000
000A
0004
FFF1
FFFA
FFF0
0015
FFEF
FFFC
FFF6
FFF0
0006
0012
FFEC
FFFA
FFEC
0014
FFFB
0001
FFF6
FFF2
FFFD
FFF5
FFF7
FFF9
FFEC
0014
FFF8
FFF1
FFFE
FFEE
000C
FFFE
0000
0011
0010
0002
FFF3
0001
0005
000B
FFFA
FFF9
FFFA
000B
FFF1
FFEF
FFF6
FFF7
FFFF
FFEB
FFFA
0010
0014
FFEE
0009
0014
0013
FFFE
FFF3
FFFB
000E
FFF8
FFED
FFFA
0009
0010
FFFF
0004
FFF9
FFF6
FFFB
000D
FFF9
000C
FFEE
0010
FFF4
0010
000A
0013
FFEC
FFFD
FFEC
0005
0013
0001
0000
FFF9
0011
0002
FFF4
0006
000A
0014
0008
FFFD
0002
0013
FFF8
FFF3
0001
000A
0011
FFFC
FFED
0009
0003
000C
FFF0
FFEE
FFF8
0009
0007
000D
FFFB
0013
FFF0
FFFC
FFFB
0008
0000
FFF6
000A
FFFC
FFF5
FFF8
FFF7
0014
FFF6
FFFA
0004
FFF5
FFF7
0013
0012
0012
FFF7
FFEB
FFEE
FFF9
0002
0001
0006
0000
000E
FFFD
FFF4
0000
FFF0
000D
0010
0014
FFFB
000C
FFF7
FFEF
FFF0
FFF9
0000
FFF8
0006
000E
000F
0015
FFFF
0009
FFFD
0001
FFFC
0008
0013
FFF8
FFF2
0013
FFF6
FFF8
0012
FFEF
000C
FFED
FFF9
FFEC
000F
FFF1
000A
0003
FFF5
0012
0007
FFF1
000F
FFFD
0010
0014
0009
0014
0010
FFF4
FFFE
FFFB
FFFF
FFF4
000E
FFF2
000C
FFF8
000E
FFFA
000F
0000
0007
FFF3
0006
FFEF
FFF4
0003
0014
FFF0
FFF7
000B
0009
FFF6
FFF5
0013
000B
0005
000B
FFF4
0012
FFEF
FFF3
0014
FFF0
FFEF
FFF4
000C
0015
FFF8
FFFE
000E
FFF4
0005
FFF3
0012
FFFE
FFF5
000A
FFF3
0013
FFEF
0014
FFFF
0002
FFF0
0009
0003
0000
FFF0
0014
0011
0007
0000
0009
FFF7
0003
FFEE
FFF3
FFFF
FFFC
0002
0000
FFFF
000A
0002
FFF4
FFEE
FFF9
0000
FFFC
FFFB
0007
0013
0012
000C
0007
FFFA
000D
FFF9
FFF8
0002
FFFA
0010
000E
FFEE
0005
FFF2
0002
0004
FFFC
000B
FFF8
FFF6
FFED
000A
0012
FFFD
000B
FFFB
0010
FFF0
FFEB
FFF4
FFFE
FFF8
0011
0004
0013
0015
FFF6
FFED
FFFB
0007
000D
000B
FFF6
000A
000D
0011
FFF1
FFEF
FFFE
0004
0004
000F
FFED
000B
FFFC
0012
FFF4
FFF2
0007
FFF1
0015
0001
0000
0012
FFEC
FFF7
000F
FFF9
FFF6
000D
000F
000D
0006
0011
FFFC
FFF4
FFFF
000D
0009
FFEF
0003
0002
000D
000D
0014
FFF3
FFF2
000A
FFEF
0000
0015
0013
000D
0003
FFF6
0003
0000
FFF0
FFF6
0003
0009
FFEB
FFFE
FFF5
0000
FFED
0006
000D
FFF3
FFF7
0010
FFED
0014
FFF8
0014
FFF1
0003
0014
FFFF
000B
FFFA
FFF6
FFEC
0015
000E
FFFD
FFFA
000D
FFF1
0012
0011
FFFB
000A
FFFF
FFEB
FFEE
0004
FFF2
FFED
0010
FFFD
FFED
000D
0007
000E
000F
FFF6
0008
FFEF
FFF6
FFF2
FFF0
0007
FFF3
000F
0003
0014
FFF2
FFF5
FFFC
000D
0009
0009
000E
FFF8
0013
FFEB
FFEC
000F
000F
0007
FFED
0001
0013
000D
0003
0009
FFF8
000F
FFF4
FFF9
0013
0013
000A
0005
FFFD
0011
000E
0012
0008
FFF8
FFF6
FFF3
FFFB
FFFF
0004
FFFB
FFF0
0009
0013
0005
0014
FFF0
FFFE
0003
FFF4
0011
FFFD
0013
FFF2
000B
FFFB
FFF4
FFF2
FFF3
0009
000C
FFED
0006
FFF7
FFF3
0007
0011
0010
000D
FFF3
FFF1
0012
0011
FFED
0013
FFEC
FFFF
0008
0011
FFEF
FFFC
0011
000C
000F
0003
000C
FFF4
0013
FFFC
FFF1
FFF4
0014
0007
0003
FFF8
000E
FFF6
0011
FFF9
000C
0012
FFF5
FFF1
FFF2
0003
0001
FFF9
FFFA
FFFF
FFED
FFF7
0008
FFFA
FFF9
FFF8
FFF6
FFF5
0014
0002
0009
FFF4
0008
FFF0
0003
FFEB
0005
FFF6
FFF3
000B
FFFB
FFF3
0005
FFF0
FFF9
0008
000C
0005
000C
0006
FFEC
FFEC
FFED
0001
000D
0003
FFFB
0009
FFED
0015
0000
FFF8
000C
0010
0014
000A
0007
0015
FFF7
FFFA
000A
FFF1
FFED
FFF0
0004
FFF9
FFEE
FFF7
FFEC
FFFE
000E
000E
0011
FFF0
000F
0001
0001
FFF2
000A
FFF2
FFFE
0002
0003
0004
0002
FFEE
FFF1
FFF7
0002
0004
0000
FFFD
0000
FFFA
FFF5
FFEE
FFFD
0012
000E
0012
000E
FFF7
0008
000A
FFF7
FFFC
FFF5
0005
FFF8
FFFC
FFF8
0004
000A
0009
0014
FFED
0009
000A
0006
0013
0012
0013
000C
0005
0014
FFF5
000F
000A
0011
0014
FFEF
FFFE
0002
FFEC
0012
FFF8
FFEE
000A
0014
0008
FFED
0013
0008
0001
0011
FFF8
FFF7
0011
FFFA
0004
0002
FFFB
FFF3
FFEC
FFED
FFFD
FFF8
0001
FFFC
0015
0000
FFFE
FFF9
0007
0004
0003
FFEB
0014
0009
0013
FFFC
FFFC
0003
0000
FFFF
FFFA
FFFD
0013
0002
000D
FFFB
0005
0000
FFF3
FFF2
FFF9
0013
FFEF
FFF7
000E
0006
FFEC
FFF9
FFF5
0010
0003
FFEE
FFF2
FFF3
FFF0
0010
FFFD
000F
FFF6
0005
0010
FFF8
0007
0003
FFF9
FFFD
0013
000D
FFFA
0002
0012
000C
0012
0006
0011
FFF1
FFEC
FFF5
FFF0
FFF2
FFF6
FFFC
000C
FFF2
0001
000A
0013
FFFD
000A
0014
0012
000A
FFEF
FFF8
FFF4
FFF5
FFF4
0004
0006
0008
000E
FFF1
000B
0002
FFED
FFF9
0014
FFFF
FFFC
FFFF
0002
FFF3
0009
FFFF
FFED
FFF8
0004
FFF6
0005
FFF2
FFEC
0012
FFF4
000E
0009
FFF0
0002
000A
0004
FFF0
FFEC
0000
000F
FFFC
FFFB
FFF3
0004
000D
FFF7
FFEF
FFF7
000A
FFF4
FFFB
FFEE
FFF8
FFF6
FFED
FFEB
FFF2
000D
0006
FFFA
FFF1
000F
0012
000F
FFEF
0014
0003
0014
FFEE
FFF7
0009
0012
FFFE
0003
0001
FFF9
0009
FFF9
FFFD
FFF2
FFFE
0007
0006
000F
0012
FFF1
FFF3
FFF5
FFF1
FFFE
FFF6
0007
FFF1
0000
FFFD
0003
0010
0003
0005
FFF6
0010
FFF1
FFEB
000D
000D
0001
FFF9
FFF7
FFF4
000D
FFF4
FFEE
0011
0012
FFF6
FFF6
FFEC
FFFA
000E
000B
FFF6
FFF9
FFF7
FFF9
FFF2
0008
FFF7
FFFB
FFED
0000
FFFA
FFF3
000D
FFFF
FFFA
0010
FFF0
FFF7
0013
0007
000E
FFF4
FFEB
FFF3
FFF8
FFF0
FFEE
0001
FFF1
000A
000E
000E
FFFA
000F
0010
FFF1
FFEC
FFF9
FFFF
FFF8
FFEB
0013
FFFF
FFF0
000E
FFEE
FFF7
0008
FFF0
0002
0008
FFFB
FFFE
0005
FFF3
FFEC
FFF2
FFEE
FFF0
000A
0014
FFFC
FFFF
FFF3
0014
FFFF
FFFA
FFF8
0001
FFF3
0002
FFF0
000F
0003
FFF7
0003
FFEC
FFFF
0006
0012
FFFA
FFF9
0006
0004
0000
0012
0014
FFFC
FFEE
0004
FFFC
000D
000F
FFFA
0014
FFEB
FFEE
0008
FFF3
0004
0006
000D
FFFA
0004
FFFA
FFF1
FFFD
FFF5
0010
FFFA
FFF8
0013
0002
FFEE
FFF8
FFF1
000A
0003
FFF8
FFF5
0004
FFFD
FFF1
0010
FFF7
0000
FFEE
000D
0007
FFFF
0012
0014
000F
0004
FFEE
0002
FFF5
FFF7
0013
FFFB
000A
0004
FFFB
FFF8
0008
0001
0000
0006
FFEE
000F
FFFF
FFF6
000C
000E
FFFB
0008
FFF6
0005
FFFE
FFF0
FFEF
0014
FFFA
0003
FFF7
0006
0010
FFFF
0008
0014
FFFB
0011
0005
0000
FFFE
FFF1
000E
0011
0012
0002
FFF5
FFEE
0010
FFED
FFF5
0013
FFFA
FFEF
FFFE
0009
FFFE
000A
FFF4
000B
0003
0009
FFF1
0008
FFF7
FFF2
FFF4
FFF7
FFEE
0014
FFEE
FFF3
FFFC
0001
FFEC
0008
0010
0012
FFFC
0003
FFEB
0009
0000
FFFC
FFFF
0005
0000
FFF3
0012
000B
FFFF
FFF5
0014
FFF7
000E
FFF0
FFF4
FFFD
0013
0011
FFF8
0012
0004
FFF5
0005
000F
FFEC
FFF9
0002
000E
FFF3
FFEE
FFF7
FFFA
0007
FFF4
FFFB
0006
FFFD
FFEB
FFF5
FFED
FFF7
0004
FFF9
FFF6
FFFD
FFED
0001
FFF5
FFFC
FFF0
0000
FFF2
FFF3
FFEC
FFFD
FFFA
FFF6
000F
0005
0001
FFED
0002
FFF4
0005
FFFA
000D
FFF3
FFFB
0008
FFEC
000E
FFF2
0010
0000
0010
000E
0003
0014
FFF7
0004
FFF0
0006
FFF7
FFFE
FFF2
000C
FFF2
0013
FFFE
FFFE
FFF4
0005
FFF3
FFFE
0007
FFF8
0014
FFF3
FFF4
FFED
0011
0014
FFF5
FFF6
FFEC
FFEE
0001
FFF8
000D
FFF0
0009
0004
FFF2
FFF3
FFF9
FFFA
0006
000C
0003
FFEC
FFF2
FFEF
0007
FFEE
FFFD
FFEE
0003
FFF5
FFF7
FFF5
FFF1
000C
FFF3
FFF7
FFEC
0010
FFF9
FFF9
0002
FFF4
FFF4
FFF6
FFFA
FFFF
FFEB
0010
FFF6
FFF7
0012
FFF7
FFF9
0001
000C
FFF1
FFF6
FFEC
0007
0003
0006
0004
FFFA
000D
FFEE
FFED
FFF4
0001
0014
0005
0009
FFF8
FFF3
0011
000D
FFF0
0006
FFFE
000B
FFED
FFEC
FFFF
FFED
FFFE
FFF4
FFF0
FFF9
FFEF
0003
0003
FFFE
0006
FFF0
0008
FFF4
000D
FFEE
0015
0003
000E
FFEC
0014
0010
FFF5
0002
0003
FFEB
0010
0002
FFF8
0008
FFF2
0006
0010
FFF1
0009
000A
0012
0012
FFFD
FFFC
000B
0006
000B
FFEC
FFF0
FFF0
FFF2
0004
FFF1
0004
FFEC
FFEF
FFFD
FFF4
0000
FFF5
FFF4
FFFE
0012
FFF2
000C
FFF7
FFFA
FFFD
FFFD
0008
FFF5
000E
FFED
0000
FFFE
FFF5
000A
0005
FFF5
FFF5
FFF2
FFFB
000C
0012
0001
FFF1
FFF8
0009
FFF8
000C
FFF8
0009
FFFE
FFF6
0001
FFF5
FFED
000D
FFEB
0014
FFFB
000D
000C
FFFF
0006
000F
0002
FFF3
FFEB
FFFE
FFF7
0012
0013
FFFE
0010
0005
FFF1
FFF7
000A
0003
FFFC
0007
FFF6
0003
0013
0007
0010
0008
FFFA
0006
0013
000F
FFFA
FFED
FFEF
0010
FFF7
0013
000A
FFF1
FFFB
FFF4
000D
FFFC
FFF8
FFFF
000F
0003
FFEF
FFF5
0003
FFF1
0012
0009
0011
FFF2
0005
0006
FFED
000F
FFEE
0000
0012
FFFE
0012
000F
0006
FFF9
FFF5
FFFC
FFF6
0011
0009
FFFC
000C
FFF9
FFF1
000A
0005
FFFE
FFED
0001
FFFE
000B
FFFE
0008
FFF1
FFFD
FFF1
0015
FFF0
FFEC
0010
FFF0
0006
000E
FFF0
FFF8
FFED
FFFE
0009
0003
FFF6
FFF7
000F
FFEE
0011
FFF2
FFEE
0013
0004
0007
0004
FFED
FFF6
000B
FFFF
000A
FFFC
000C
FFF6
0015
FFEC
FFF0
0004
000F
0000
FFFE
0001
0004
0000
FFF5
FFEF
0006
000F
FFFC
0004
FFEC
FFFD
FFF3
0003
FFF8
FFEF
000A
000E
FFF2
000C
FFFC
0012
000F
0009
FFFB
0015
FFF1
FFFA
000D
FFF4
FFF1
FFF6
FFEC
0012
FFF8
0002
0006
FFEE
0014
FFF0
0006
000A
FFF8
000A
FFEE
FFEE
FFFD
0006
000E
000E
0012
FFFE
000C
FFED
0002
0012
000A
0000
FFED
FFF4
FFF1
FFFB
0001
000C
FFF0
FFFC
FFFD
FFFC
000A
000B
0009
0006
000D
0011
0012
FFF5
FFF5
000B
FFF7
FFFB
0010
FFFE
0008
0014
FFFD
000F
FFF9
000E
FFEF
0001
FFFA
0007
FFEF
FFFA
FFF1
FFF0
FFF6
FFFA
FFEB
FFFF
FFF6
0004
FFFC
0003
FFF7
FFF9
0005
0002
0011
000C
0003
FFF4
FFF6
0009
0009
0005
FFFA
0006
0015
FFF7
FFFF
FFF2
0001
FFEF
000D
FFED
0014
0008
0009
FFED
FFFB
000C
FFF0
0001
000C
0002
FFF6
FFF7
FFF1
FFF9
FFED
0004
FFF6
FFF2
0001
0010
0014
000C
FFF4
0014
FFF4
FFF7
FFF7
0011
FFF2
0013
0012
000F
0002
0009
0008
0000
FFFB
0007
FFF6
FFF4
0008
0013
0009
0005
FFEC
FFEF
FFF4
FFF2
FFEF
FFEF
FFFE
0006
0004
FFEE
FFFC
FFF1
000C
FFEE
FFFD
0013
FFF0
FFF5
0005
000D
FFF7
0011
0011
0003
0008
FFEF
0002
FFEB
000F
FFEF
0002
000E
0005
0014
0011
0012
FFFF
000A
FFF6
0001
FFFE
FFF3
0013
0012
FFF3
000C
000A
0011
FFFB
FFFE
FFEC
FFF2
FFF2
FFF5
0008
0014
0015
FFF3
000D
0013
FFF2
FFED
0011
FFEF
FFF0
FFFB
0004
0000
FFF1
FFFC
0013
FFEF
FFF1
0009
FFEB
FFEE
000E
0003
FFF4
FFF7
FFFE
FFFD
FFF6
FFF8
FFED
FFF0
FFF7
0005
0006
0006
FFF6
FFEE
0015
0003
FFEF
0008
0003
FFFE
0010
FFF1
0011
FFF3
0000
000D
FFFA
0014
FFF1
0008
0013
0013
0014
0005
0011
0015
FFEB
FFF3
FFFC
000F
0005
FFF1
FFEE
FFEC
0000
FFF1
0005
FFF6
000A
FFEF
0013
0006
FFFC
FFFC
FFF1
FFEE
FFF7
0009
0006
000C
FFEC
FFF4
FFF3
000C
0012
FFF8
FFFF
0015
FFF5
0014
0013
0004
0003
FFFB
0005
0000
FFF3
FFED
FFFB
000E
FFF0
0008
0011
FFF1
FFFB
000D
000F
0004
0005
0015
000F
0008
0014
FFF6
0006
FFF8
FFF8
0002
0007
FFFB
0010
0002
000B
FFF2
0009
000B
0003
FFF1
FFEB
FFEB
FFED
FFFC
FFF3
FFF3
FFFC
0009
000E
FFF6
FFF0
0004
000A
FFEE
0006
000E
0012
FFF1
0005
FFEB
FFEF
FFFA
0007
FFFB
000D
FFEE
FFEB
000A
000E
FFEE
000B
000A
FFFB
000C
0014
000C
FFEE
0002
0002
000F
FFFD
FFEE
0007
0009
0011
000C
FFF3
FFF8
FFF8
000B
000D
0010
FFF9
0007
0013
0010
FFEF
FFF7
FFFE
FFEE
FFF7
0000
0013
FFFA
000D
FFF4
FFFD
0011
000C
FFF8
FFF2
0009
FFF0
0010
FFF4
0013
FFF8
0001
FFF6
000B
0006
FFF4
FFEE
0001
0005
FFF6
0015
FFF6
000B
FFEB
FFF0
0007
0007
FFFD
0000
0015
FFEE
000A
FFF4
FFFD
FFF7
0008
0015
0010
0009
FFFF
0009
FFEB
000F
0012
000C
FFF5
0007
FFFC
0015
000D
FFFF
000F
0000
FFFD
FFFC
0006
000E
000A
FFFC
000E
FFFF
0008
0014
0012
FFEF
FFF1
FFF6
0012
0001
000B
000D
000C
000A
0002
000C
FFF1
0015
FFF2
FFEF
000F
0003
0010
FFF3
0008
FFFB
0010
FFED
000F
0006
FFF4
FFF8
0009
FFF5
FFF8
0009
0015
FFFF
0006
0004
0013
FFFB
0014
FFEE
FFF1
0012
0004
0013
FFF3
FFFA
FFF1
FFF8
0009
0012
0002
000A
000B
0005
FFEC
FFED
FFF9
FFF5
FFF1
FFFC
FFFA
FFFC
FFF8
000E
0005
0002
0006
000D
FFFF
FFF7
FFFB
0008
FFFF
FFFE
0007
0008
0005
0010
0005
000E
FFF4
FFFB
0008
0007
000E
0003
FFED
0012
FFF4
FFF7
000A
FFEB
FFFC
0008
0004
FFFE
0005
FFF9
FFF2
0004
FFFC
000D
000D
FFF6
0010
0009
FFEC
FFEE
000A
0011
000D
000F
0004
FFF1
FFF0
0011
FFFF
FFF3
FFF4
0010
FFF8
FFEC
0006
0014
FFF1
FFF5
FFFB
000F
000D
0004
FFFD
0007
000C
0004
000B
0012
FFFF
FFF6
FFF6
0012
000A
FFFE
0013
FFF4
0008
000C
0009
0012
FFF5
0000
FFF3
FFF1
0001
0006
0004
FFF9
FFF5
FFEF
FFF8
0008
FFF8
0010
FFEE
0008
0005
0015
0004
0011
0014
FFF3
0012
FFFA
FFFA
FFF9
0002
0013
FFF5
FFF8
FFF9
000E
FFFB
FFF7
FFEF
FFF2
FFEE
FFFE
0002
0000
FFF9
0010
0001
FFF5
FFF4
0010
0006
FFEC
FFF1
FFF5
000E
FFFB
FFF6
FFFC
0013
FFFE
0010
0004
0013
0012
0002
FFF0
FFEE
0007
FFEC
FFF4
FFFB
FFF5
FFFA
FFEB
0010
FFEC
0015
000A
0011
FFF4
FFF8
FFEF
0012
FFEC
FFEB
FFEB
FFFA
000B
FFF8
000E
000F
0002
FFF5
FFFB
FFF3
FFF8
FFF2
FFFC
000D
FFF5
FFEB
FFFC
0008
000F
0010
0014
0012
FFF1
FFED
FFF8
000A
FFF6
FFEF
0007
0003
000A
0006
0001
000B
0005
FFF2
FFFD
FFF9
0002
000B
FFEB
000E
000C
0003
0011
000B
0001
0003
FFF0
0002
FFF2
FFFB
FFEF
000E
FFEF
FFF3
0003
FFF9
0012
0010
FFFF
000A
0004
000B
FFEF
0001
FFF5
FFF9
000D
FFF8
000B
0010
0006
FFF8
FFFD
0007
FFFE
FFFA
FFF7
FFF4
0011
0013
0008
FFF7
0013
0005
FFF8
000E
FFEC
FFFB
0010
000E
FFEE
FFF7
FFF7
FFF5
000B
0000
FFF1
FFFE
0014
FFFA
000B
000D
0003
FFFF
FFF6
FFF3
0004
0000
000E
0015
FFFC
FFF5
000D
FFFE
FFFB
FFFE
FFF1
FFED
FFF4
000B
FFF3
FFF0
FFF2
0013
0004
0005
FFFB
FFF3
000A
FFFB
000A
FFF7
FFF5
000D
FFF3
FFF7
FFF7
FFFD
FFFB
000C
0004
FFF7
0006
000F
FFF3
FFF8
0012
000D
FFF2
FFF2
0007
FFF0
0004
FFEC
FFEC
000D
0004
FFF4
0015
0006
000F
FFFD
FFEE
FFEC
FFFC
0000
FFFF
FFFF
FFFC
FFFC
FFEF
FFF0
FFFA
0006
FFFD
000A
FFFE
FFF3
FFFD
FFF3
0003
FFED
0014
0015
FFF5
0004
0012
0010
0008
000F
FFEE
0006
FFF5
FFF6
0012
FFFC
000D
0005
000E
0015
000E
000D
FFFC
FFF7
FFF5
0005
0004
0003
FFEF
000C
0004
FFF8
000F
0009
0008
0011
FFEF
FFF1
0001
0009
0006
0013
FFFA
FFED
0003
FFF4
0001
FFF9
0009
FFED
000E
FFFF
FFF3
FFF5
FFF0
0006
FFEB
000D
FFF9
0013
0005
FFF4
FFF5
0015
FFEE
FFEF
FFEB
FFEB
FFF2
0011
0013
FFFD
FFFF
FFFA
0011
FFFC
0002
FFFF
0010
0001
000D
FFED
0006
FFFB
0003
000B
0008
0010
0013
FFF3
FFF5
FFEF
FFFD
0007
0002
FFEB
0014
FFFA
0002
FFFD
000A
FFED
FFFA
000F
000B
0003
0003
0014
0007
000B
000A
FFEF
FFF0
0009
FFF3
0011
FFFD
FFFE
FFFF
0015
FFFC
FFFD
000B
0001
FFFF
0006
0015
0007
000B
0011
FFED
0009
FFFC
FFFD
FFEF
0000
0014
0002
0014
FFFF
0005
FFFC
FFED
FFED
0014
FFEB
FFED
0013
0000
0002
000D
0010
FFEB
FFF3
FFEE
FFEF
FFFF
FFFB
FFF1
FFF0
000F
FFF0
FFEF
FFF6
0010
FFEC
FFF8
0006
FFF6
000F
FFF3
000A
FFFE
FFF2
FFF1
0014
FFF9
FFFF
0005
000E
000C
FFF7
FFF6
0005
FFEC
FFF2
FFEC
0009
FFF3
FFFE
FFFA
FFF0
FFFC
0015
000E
0002
FFF3
0002
0005
FFEC
FFF2
FFF0
000F
FFF9
0014
0011
FFEE
0002
FFFD
0006
FFF8
0013
0014
FFFF
0007
FFEC
FFF1
FFEF
000A
000C
FFFA
0008
000D
FFF7
FFFF
FFF3
FFFB
FFF3
0008
0004
0010
FFF7
FFF6
FFEB
FFED
000F
0012
000C
000D
FFFD
FFFF
0003
FFF5
FFFC
FFF6
FFF1
FFEE
000F
0006
0002
0000
FFF2
000D
FFEC
000F
FFF2
FFFE
0003
FFF5
000A
FFEF
0013
FFFE
000C
FFFE
0003
FFFF
FFFD
000D
FFED
0004
FFF5
FFFD
000E
0012
FFF9
0012
FFF5
000E
0011
FFF3
FFEF
FFF8
0000
FFF4
0012
0009
000C
0010
0004
FFFF
000D
FFFA
0007
0006
FFF2
FFFC
FFF6
FFEC
FFF1
000B
0012
FFEC
FFFD
FFFD
0012
FFED
FFFA
FFF4
FFF7
FFF4
FFF0
FFFF
000E
FFFC
FFFA
000A
FFFF
FFED
FFEF
0012
FFFA
0013
FFF1
FFEC
FFFE
0007
FFF1
FFF7
0002
0006
000F
000F
0012
FFF1
0011
0005
0015
0001
FFF3
0001
FFFA
FFF4
FFFA
0008
000D
0008
FFFD
0007
000E
FFF6
000A
FFF5
000D
FFFC
0000
0009
FFEE
FFF8
FFF6
000D
0005
0007
0003
000F
000A
FFF5
000A
FFF5
FFED
FFFC
0002
FFF8
000B
0009
FFF9
0002
0000
0001
FFF9
FFF9
0015
FFF6
0006
000E
0003
FFFD
FFFE
0000
FFFE
FFF7
FFF7
0007
0010
0000
0010
0014
FFFC
0015
0010
0002
FFEC
0005
0005
0000
FFF9
000D
0005
FFF6
000D
000E
FFFB
FFF2
FFFD
FFED
0015
0014
0005
FFF2
FFFA
0008
0003
0005
000D
0009
FFF1
FFFA
0004
FFFD
0009
0003
FFF1
000E
FFF8
0001
000F
FFF6
0012
0011
0004
000A
0006
FFFC
0013
000C
0007
0005
000E
0009
FFFA
0004
FFFF
0013
FFEC
FFF0
FFEF
000C
0007
000F
0012
0007
FFF9
000A
FFFA
FFFB
FFF7
FFF9
0002
FFF4
FFED
000D
0011
0005
FFF0
0015
000A
0008
000F
0008
FFF7
0002
FFEB
0003
000D
0006
FFF3
FFED
FFFC
FFF0
FFFA
FFED
0014
0009
FFF9
000A
FFFD
0006
FFFF
0004
FFF7
0000
0014
FFEF
FFEF
0003
0004
0009
000A
000B
0001
FFF8
0011
FFFF
000E
FFFC
FFED
FFF8
FFF2
000B
0011
0004
FFF7
FFF9
FFEC
FFFA
FFF4
000A
000E
0014
FFFA
0008
0010
FFF4
FFF5
FFED
0009
0014
0001
FFF6
FFF1
FFF1
FFEE
FFF4
FFF6
0006
FFF5
0006
FFF4
0006
FFF3
000C
FFF3
FFF1
000C
0013
000B
0006
FFF0
0008
FFFF
FFFD
0008
FFF1
FFFE
000A
FFF1
FFF2
FFF2
0011
FFFC
0002
FFFC
FFFB
000F
000B
0002
0012
FFFC
000D
0002
0015
FFF4
000C
0014
FFEE
FFF5
0006
FFFD
0002
0000
FFF3
FFFC
FFEB
FFF5
0004
FFF5
000C
0001
FFF3
FFF1
0002
000F
FFF4
0002
0008
0014
0005
0011
FFEC
000E
0006
FFF5
000E
0000
FFF8
FFF8
0013
0005
0009
FFF6
FFF8
FFFD
FFFC
FFF4
FFEB
000A
FFED
0012
0001
FFF5
0009
FFF8
0014
000C
0003
FFF2
0001
000B
0005
0004
FFF1
0014
000B
0008
0015
FFFA
FFFA
000F
0008
FFF3
0005
FFEC
0003
000C
0003
000C
000F
FFF6
000B
0010
FFF3
FFEB
000E
000B
FFFC
0004
0013
0002
0010
FFEF
FFFA
FFF1
000E
FFF5
0011
000E
0005
FFF4
000E
000D
000D
FFF5
FFFE
0002
0010
000F
FFF0
0003
0003
FFFF
FFFA
0010
FFF1
FFFE
FFFB
FFFA
0012
0015
0007
000D
0014
FFF8
0011
0010
000F
FFF4
0003
0008
0002
0000
FFFC
FFF0
0013
0002
FFF7
FFF1
0001
0013
0004
0001
0003
000F
0010
FFF9
000A
FFF3
0013
FFFA
FFFA
0002
FFEE
0003
FFF2
FFED
0000
FFF7
FFEE
000F
000D
0002
0012
FFF1
FFF2
0007
FFFD
000A
FFF5
000E
FFEC
FFF9
0011
FFF3
FFEC
FFF8
0011
FFED
FFEC
FFF8
0000
FFFC
FFFB
000D
0014
0010
FFF8
0003
FFFE
0012
FFF9
000E
000A
0010
FFEC
0004
FFF7
FFEF
FFFA
FFEE
0001
0014
0001
FFF2
000C
0001
FFFA
FFEE
000C
000A
FFFF
000D
0001
000D
FFF1
FFEE
000C
FFFF
0003
0010
FFF5
FFEC
FFFF
FFFF
FFF5
FFF5
FFF0
FFF5
000F
FFF1
FFFE
FFFF
000C
000F
0013
FFEF
0004
0004
0014
0000
0006
0015
000B
FFF1
FFFA
FFF2
0012
FFFF
FFF8
FFF5
FFFA
FFF1
0003
FFF4
0014
0010
0008
FFF1
FFFA
FFEF
000F
FFF3
000C
FFEF
000F
0011
0002
FFFB
0012
0011
FFF9
FFFD
000B
0011
FFFF
FFFB
FFEC
000E
FFF4
0005
000F
0008
0001
FFFA
000A
FFEC
0014
FFFD
FFF3
000E
FFFD
FFFB
FFFC
0008
FFEF
FFF7
0004
FFF3
0008
FFF6
000D
FFFE
000E
0012
FFF0
000A
0010
FFEF
0012
FFEB
FFED
FFFA
FFF1
0013
FFF5
0003
0010
0008
0013
000D
000E
FFEC
000A
FFF4
0000
FFFA
FFFA
0012
0001
0001
FFEE
000C
0008
FFF0
000A
FFF9
000F
FFF7
FFEE
000E
0001
FFF6
FFF8
FFFC
FFFE
FFFC
000A
0003
0005
FFF1
000B
0005
0006
0007
0014
0005
FFED
0002
FFEE
FFF6
FFFE
000E
FFEE
FFFD
FFF4
FFF9
0005
FFF6
000C
0015
FFF1
000C
0011
0001
FFFE
0011
0007
FFF4
0009
FFF0
FFF9
0011
0001
0012
000B
FFF5
FFF8
FFF2
0010
FFEB
FFF4
FFEF
FFF4
FFFE
000F
FFFB
0014
000B
FFF8
FFFD
0004
FFFC
FFEE
0014
0010
FFF9
000A
0012
000A
0006
FFF2
FFFD
FFEC
FFF2
FFF0
000C
0000
0005
FFF8
0014
000C
FFFA
000C
FFFC
0012
FFEE
FFFB
FFFE
000C
000F
FFF6
FFF3
FFFD
0013
FFEB
0008
FFF2
FFFA
0006
000D
FFFF
FFF0
0000
FFFB
0006
FFF8
0013
FFF4
FFF9
FFF6
0007
0008
0005
FFF0
0010
0006
0015
000B
0001
FFF2
FFFA
0005
FFF3
0000
FFFD
FFFD
FFEF
FFF8
FFF3
0014
FFF4
FFF6
000E
0004
FFFB
000D
FFED
0000
0003
FFEC
0000
0012
FFF0
FFFE
FFF2
0000
FFF1
FFFF
000D
000E
FFF1
0010
0000
FFF5
000B
FFFF
0008
FFF1
0004
FFFB
0002
FFF5
0011
0013
FFFE
0003
0013
FFFE
0009
FFFB
000C
000C
000C
0001
FFEE
0014
000A
0000
FFF6
000D
FFFB
FFF0
FFFD
FFFB
FFFB
FFED
FFF5
000E
000B
FFF1
000E
000E
FFFE
0011
0013
FFED
FFF9
0003
0001
FFF4
0004
0008
FFFC
000E
FFF9
FFFB
0008
0006
000C
FFEE
000F
0004
0003
000C
FFED
000B
FFEB
FFF4
000F
FFEC
0005
0011
FFFD
FFFA
FFEE
FFFF
FFFE
0001
FFED
FFEE
FFFA
0000
0011
FFF0
FFF9
0004
FFF6
0010
000B
0006
0011
FFFC
000C
000A
0005
0012
0006
000D
0011
0004
FFF6
FFF1
FFFF
FFF1
0015
000C
0005
000C
FFEC
0000
FFFE
000D
FFF3
FFF4
0007
FFFF
FFF4
0002
000E
FFEE
0002
FFED
0003
0000
0008
000E
FFF4
FFF7
0006
0006
FFFE
0003
FFF4
FFFE
FFEB
0009
000E
000F
0007
FFF5
0008
FFEF
000F
FFF7
FFEE
FFEF
FFF0
0000
000E
FFEC
FFF7
0011
0005
0013
0014
FFEC
0011
FFFA
FFF2
000F
0000
0012
FFF3
0007
0000
0004
0015
FFF5
0015
0010
000A
FFEE
FFFF
FFF8
0009
FFFF
0006
FFF3
FFFA
0005
000D
FFEE
FFED
000D
000D
0005
FFFF
0001
FFED
FFF2
0011
FFFA
FFFC
FFF4
FFF9
0002
0011
FFF2
FFEC
FFFD
FFF4
FFF2
0013
0013
FFFB
0004
000F
000D
FFFA
000F
FFFD
FFF9
0004
0004
FFF6
FFF0
FFEF
0008
000E
FFF3
0002
FFEF
FFFE
FFEE
000F
FFEC
FFF8
FFFC
0004
0001
0015
FFEB
FFFE
FFFF
000B
0002
0003
FFF1
0009
FFFD
FFFD
FFFE
000A
FFF8
000F
0013
0013
FFFA
FFEF
FFFD
000E
0013
0002
0002
0012
FFF0
000B
000D
0005
FFEB
FFEB
0000
FFF2
FFEC
000E
0011
FFF1
0004
FFF6
000E
FFF7
FFF9
0005
FFF4
000F
0007
FFF7
FFFF
0001
0003
0010
FFEE
0011
0004
FFFD
FFF6
000D
FFF2
FFF1
000A
0012
0007
FFFB
0014
0006
FFF4
0001
FFF1
FFFD
FFED
0000
FFFC
FFF6
000F
000F
FFF3
0008
FFF6
FFF8
FFF4
FFF5
FFF1
FFF5
FFFE
FFF1
0001
FFF9
FFF9
0000
FFF6
FFEC
FFED
FFFD
FFF4
000C
000A
0005
FFFD
FFFB
FFF6
FFF6
FFFF
FFF1
FFF2
0008
FFEE
FFF6
FFF9
0004
0005
FFED
000C
FFF2
FFF1
FFF1
FFF3
FFF7
000C
FFF0
0010
000C
FFF5
0014
0002
FFF3
FFF5
FFF9
FFF3
FFF4
000E
FFFD
FFED
0013
FFF1
000C
FFF7
FFF1
0009
FFF0
000F
0004
FFFB
FFFD
0014
0005
FFFA
FFEF
FFFA
0011
FFEF
0005
FFF0
0012
0004
0002
FFF4
0014
000E
FFF3
FFEC
000C
FFF9
0014
FFF1
000B
FFFA
FFF9
0013
FFFF
FFEE
FFEC
FFEE
FFF4
FFEF
FFF4
FFFA
FFED
FFF4
FFEC
FFFC
FFF8
0006
000E
FFFC
FFF4
0010
FFF6
0001
0007
000F
FFEE
0011
0005
FFF0
0000
FFED
FFFC
000E
FFF5
FFFB
0007
FFEF
FFFE
0013
000D
000D
000B
FFFE
000B
FFFD
0007
FFF4
0007
0007
000A
0003
FFF8
FFF7
FFF0
FFFE
000C
FFF7
0011
0010
FFF4
FFEF
0010
FFEB
0002
FFFD
0007
0011
FFF9
FFEF
000E
000F
FFEE
FFED
FFF1
FFF3
FFEB
000E
000A
FFEF
FFFC
FFED
FFFC
0011
0002
FFF9
FFFC
000C
0008
000B
0004
0003
0003
FFF5
FFF0
FFFB
000D
FFF3
FFFA
0004
000E
FFF7
000C
0005
0003
FFFC
FFF5
0004
FFFA
0008
000A
FFF1
0012
0005
FFFC
0010
0005
000A
000E
0012
FFFB
000F
FFF5
000B
FFF6
FFF9
0013
FFF7
0002
000A
FFFD
0003
FFEF
000B
FFFB
0015
000F
FFF5
000C
FFFE
0005
0005
FFF4
FFFD
000A
0004
0001
000D
0015
0007
0008
0004
FFF2
FFFA
FFED
0006
0008
FFFB
000B
000F
FFF9
0001
FFF8
FFEC
0014
FFFA
0005
FFFB
0008
FFF5
FFF5
0005
000D
0012
0001
FFFB
0014
0001
0007
0015
FFFB
0001
FFFF
0002
FFFF
FFF1
0001
0005
FFF4
0006
0006
FFF3
0004
FFFE
000B
FFF5
FFFD
0011
0009
0001
FFF5
000A
FFEF
0003
FFED
FFF0
0013
0008
FFF4
FFF8
0008
FFF8
000B
FFF2
0011
FFF3
0013
FFEF
0011
FFEF
FFFE
0012
0009
FFFA
FFF8
FFFF
0001
0002
FFF8
0002
FFFB
0002
FFEE
0011
0014
FFFC
000E
FFED
FFFD
0004
FFED
0000
0005
FFF7
0007
0005
FFFA
0005
000E
0005
FFF9
0003
0006
0014
FFF4
FFF8
000D
FFF0
FFEB
FFF8
0010
FFEF
FFFC
000A
FFF9
FFF2
FFF2
FFFC
0002
0000
FFFC
FFF7
0003
0010
FFFC
FFF0
FFED
FFF3
FFFB
0013
0015
FFF7
FFFD
000A
FFF2
0009
FFFD
FFFE
0003
000A
000D
0011
000F
FFFB
0007
FFF7
0005
FFEF
FFF0
000D
0005
FFEC
FFF3
FFFA
FFFA
0005
FFFB
FFFC
0009
0013
0008
000C
FFF5
000F
FFF4
0005
0009
FFFC
FFFD
FFF3
FFF2
0001
FFF5
FFF7
FFF2
FFFF
FFFD
FFF8
FFF9
FFF5
0002
FFF0
0014
000A
0001
FFEC
FFF1
0009
0002
0008
FFEE
FFFC
FFF1
0012
FFF6
FFFC
0010
0012
0000
FFEF
0004
0000
FFEB
0014
0013
FFF1
FFF0
000B
FFF6
FFEF
FFF8
0015
FFF0
FFEC
FFFF
0006
FFFF
000D
FFF1
000C
FFF7
FFFD
FFFB
FFFA
FFF4
0012
0001
FFF4
FFF8
FFEC
0006
0012
FFFD
0012
FFF5
FFEC
0001
FFF0
FFFF
FFEE
FFF1
FFF8
FFF3
0015
FFF1
0011
FFEB
FFF1
FFF5
FFF6
FFFB
FFF8
FFF8
000D
FFF9
FFEB
000B
FFF2
FFFE
FFF0
000F
FFEF
FFFB
0012
FFFA
0008
FFED
FFEE
FFF4
0000
000A
0009
FFEB
FFF5
000F
FFF1
FFFD
FFFC
000C
FFEE
0008
0006
FFFB
0000
0008
0001
FFF7
000F
0005
FFF0
FFFE
FFF6
000C
0006
FFED
000D
0012
0010
0013
0014
0004
0000
0003
000F
FFFF
000C
0000
FFEF
FFF4
FFFF
FFFD
FFF6
0002
000F
FFFE
000F
FFFE
FFF0
000D
0006
0015
0014
0006
FFF0
0013
000F
FFFB
FFFC
FFF0
FFFE
FFFC
0008
0009
0002
FFFA
FFEE
000D
000C
FFFA
0010
0011
FFEC
0010
FFFE
0008
0011
FFEB
FFF4
000C
000B
000F
FFF8
FFFF
0014
0001
FFFD
0008
0002
0013
FFED
FFEF
FFFF
0005
0001
000A
0014
0014
0010
0012
FFF0
0002
FFF3
0010
0006
FFEF
0009
0012
FFFF
FFED
FFF6
FFF4
FFF7
0006
FFF1
FFF2
0000
0000
FFFE
0007
FFF3
0010
FFF3
0009
0014
FFF3
000A
FFF6
000E
FFFF
FFF0
0005
0009
0002
000F
0001
000F
000F
FFED
FFFD
0005
FFFB
FFEC
0014
0008
0002
FFF9
FFF4
000F
FFFF
0008
FFFA
000B
0011
0015
000E
FFEC
000D
FFF4
FFEB
FFF9
FFF6
0007
FFF9
FFFC
FFFC
FFF9
FFF4
FFF0
FFEF
0008
0001
0001
000D
FFFD
FFFD
000A
0003
0009
0007
FFEB
FFF8
FFFA
0012
000B
0014
0014
0000
FFF3
0012
FFFE
000F
0014
0004
FFED
0005
0003
000A
FFF5
0001
FFFF
FFF0
FFFB
000F
0001
FFEE
FFF0
000D
FFF4
0012
FFF8
FFF7
FFF8
000B
0003
000C
FFEE
000D
0004
FFEF
FFFD
FFFD
000A
0013
FFFA
FFFB
FFEC
0009
FFF1
FFFC
FFFB
0012
000E
FFF9
FFEE
FFF5
000A
FFFA
000D
0000
FFF2
FFF5
FFFB
0001
FFFF
0003
FFEE
0013
000C
FFF8
0015
0005
0001
FFF7
FFF1
0007
FFF9
FFF8
FFF8
0004
FFFD
FFED
FFF7
0007
0002
0003
FFF6
FFEC
0001
FFFD
0005
000B
0010
0014
000E
000A
FFFA
FFEB
000F
000C
0000
FFED
0015
FFF4
000E
0010
FFEE
FFF9
0001
000D
FFF2
FFF8
000E
FFFB
FFF7
0013
FFEF
000C
FFF7
000B
FFF9
000B
FFFD
FFF6
0010
000C
000F
FFF3
0011
FFFC
0013
FFFB
0011
0010
000D
0010
FFF4
FFEC
FFF9
FFFC
0008
FFF6
0004
0008
0007
0004
FFF4
FFFB
0003
0011
0001
FFF0
000F
FFF9
000F
0002
0012
000A
000E
FFFB
0004
FFED
FFFE
0010
FFEC
0013
FFFB
0008
FFFF
000E
000F
FFFE
FFEE
0009
FFF0
000F
FFF0
0014
FFF4
FFF6
0014
0014
0011
0003
FFF5
000F
FFF0
0015
0009
FFEE
0010
0015
000C
0009
FFFF
FFF7
000C
0008
0004
FFF5
FFF2
FFF2
FFF3
0000
FFFD
000A
FFF5
000E
000E
000B
000F
FFF7
FFEC
000A
FFFF
FFF4
0008
FFEB
FFFA
FFF3
FFED
FFFC
0006
000E
FFEF
0009
0001
0002
FFF6
0010
0013
FFFC
000B
000B
FFF3
0015
FFEE
FFF0
FFF2
FFFC
FFF0
FFED
FFED
0007
0008
0009
FFF2
FFF3
0011
FFFA
FFF1
FFEE
0007
FFFC
0013
0005
FFFC
FFFA
FFEE
FFF5
0009
FFF7
FFF8
FFFF
FFFB
0001
0013
000C
000E
000A
0007
FFF9
FFEE
FFF7
0006
FFFD
FFF5
0003
000E
FFF3
0007
0012
000C
FFFA
0002
FFEE
0001
0014
FFED
FFFA
FFF8
0010
000B
FFF9
FFFA
0006
FFEC
FFF3
FFFA
000A
FFF9
0015
FFEC
FFF9
0009
0007
FFFA
FFF6
0008
000D
0002
FFFC
000F
0010
FFF0
FFF1
0005
FFFD
FFEF
000B
FFF7
FFED
FFED
000D
0012
FFF0
FFFA
FFF8
0002
0006
0004
000C
FFFB
0000
0004
FFF9
FFF9
0015
0015
FFF4
FFFF
0007
FFFA
0004
000C
0002
0005
FFEC
000E
000C
0012
0003
FFFA
000A
000F
FFF1
000D
FFFA
0015
0004
FFFF
FFF0
FFEC
0005
000E
FFF5
000B
0000
FFF8
0003
000C
0009
0011
FFFB
0002
FFEE
0012
0003
000B
FFFF
FFFA
FFED
000C
0009
FFF7
FFF5
0015
000D
FFFD
000A
FFFB
FFFB
000A
FFF3
FFEE
000A
0005
FFF4
FFF2
FFFE
0011
FFF9
FFEC
0002
0006
FFF7
0013
FFFB
0014
FFF2
0002
FFF3
FFF9
0011
FFF1
FFFF
FFEF
000F
FFF8
000B
FFEB
FFFE
0011
0010
FFEE
FFF5
0014
FFFF
FFFA
FFED
000B
000F
FFF4
0003
000E
000D
0004
0000
0010
000D
0008
0008
000A
0011
FFFD
000B
0010
0015
000E
0000
FFFF
FFF2
FFF5
000C
0013
000D
FFF6
FFFF
FFEC
0001
0013
FFF4
FFF0
000F
0001
0004
FFF6
FFF8
0005
000B
FFFD
FFF8
000D
0006
0010
FFEC
000A
0007
000B
FFF2
FFFB
FFEB
FFF0
FFF1
0009
0010
FFFF
000A
0007
0010
0004
FFFB
000C
0012
000B
0003
0006
FFFF
FFFF
000E
FFF3
FFF6
0009
000A
FFEC
0011
000D
FFED
0010
FFF9
FFED
0001
FFED
FFF4
0005
FFEB
FFF5
FFF5
FFF4
FFFC
FFF3
000E
FFEB
FFF2
000B
FFF9
0006
0002
0009
FFEE
0011
FFEC
FFFE
000F
FFF8
000A
000C
0009
0011
0000
0003
FFF4
FFF5
FFF8
0002
FFFC
FFFD
000B
FFFD
FFFA
FFF1
FFF1
000A
0009
0012
FFF0
FFFD
FFFC
FFFE
0005
0002
0014
FFEB
0004
FFEC
0006
FFFA
0000
FFF6
0013
FFFB
FFF1
FFF5
0005
FFEE
FFEE
FFFE
0006
0012
0004
0009
0011
0009
FFF0
FFFF
0015
000B
FFF5
FFFE
000F
0001
000B
FFF4
0003
0004
FFF7
0008
FFFF
FFFB
0007
FFFC
0011
0014
FFFD
0008
FFF2
000A
0014
FFEE
0014
FFF9
0004
000B
0002
FFFE
FFFD
0002
FFEE
0011
FFF0
FFF1
FFFC
FFF5
0014
0004
0002
FFF7
000F
FFFC
0005
000F
0005
0005
FFED
FFEE
FFF7
000B
000A
0008
FFF7
FFED
FFFB
000C
0013
FFF1
FFF2
FFF0
000F
FFF6
FFEC
FFF1
FFF9
FFF5
0003
FFEF
FFF7
0009
FFEC
FFF7
0001
0008
FFF4
000F
0004
0005
0003
FFEF
000E
000E
FFEC
0010
FFF4
FFF3
FFFA
FFF3
FFFD
0005
0011
FFEC
0014
0014
0011
FFFD
FFF4
FFF4
0009
0002
FFFB
0010
000E
0009
0003
FFF0
FFF3
0012
FFF2
0013
FFF7
FFF3
0002
FFFF
FFEF
FFFD
FFF3
FFFD
000A
FFFA
0006
FFEC
0003
FFF3
FFFB
000C
FFFB
0012
FFED
000E
FFF8
FFF2
000F
FFF5
FFFB
000C
FFFD
FFFD
FFED
FFFE
FFFF
FFED
000F
0010
FFF2
FFF2
FFFF
FFF9
FFF8
0011
0004
0003
0009
0001
000D
FFFB
FFFF
000E
0005
FFF5
FFFA
FFFC
000C
FFEF
0001
0012
FFF0
FFFF
0008
0014
FFF0
000A
FFF4
FFFD
0007
0006
FFF8
FFF9
FFF8
0015
0012
0007
000D
FFF3
0001
0004
FFFE
FFF1
FFEB
0011
FFED
000F
FFF7
000B
FFF6
0002
000D
FFFF
FFF4
FFF7
0002
0014
0000
0005
FFF0
FFF2
FFF9
FFEB
0005
FFFA
000D
0013
FFFF
FFF6
0008
0000
0010
FFFE
000E
0006
FFF3
FFF7
000F
FFFC
FFFB
FFEE
0013
000A
FFEE
0003
FFFE
FFF0
0005
FFF1
FFFB
000C
0002
000C
0012
000C
000C
FFF5
0001
FFF1
FFED
000A
000F
0013
FFF5
0005
0009
0015
FFEF
FFF2
0010
FFF8
FFED
FFF8
FFF8
0008
FFF4
0015
FFF0
0007
000F
FFF2
000A
FFFF
FFFD
0010
FFFA
000F
0009
FFF2
0010
000A
0008
000C
0005
0001
0004
FFF7
000A
000C
0009
FFF6
FFFB
0013
000C
FFFA
000D
0003
0010
0000
000F
0008
FFFF
FFF4
FFF2
FFF3
FFF9
000F
FFEC
FFF0
FFF7
0011
000C
FFEC
FFFD
0005
0011
FFFD
0012
FFEC
0015
FFF3
FFED
FFF9
0001
0009
0010
000F
FFF6
0000
FFFB
0005
FFFD
0010
FFF6
000F
FFFE
FFF7
FFFD
0009
0014
0007
FFEB
0009
0014
000D
FFEC
FFF8
FFF3
FFF0
FFFF
0014
0014
FFF4
000A
FFF1
0008
0012
FFFA
000B
FFF2
FFF3
FFF1
FFF5
FFEC
FFF6
FFF7
0004
FFF0
FFED
000C
0004
000B
000D
FFF1
FFEB
0006
0011
FFF3
FFF2
0000
FFF9
FFF5
0007
000E
FFF8
FFFE
0003
0009
000A
FFFD
FFEE
FFFC
FFF0
FFF2
FFEE
FFEE
FFFE
FFF4
FFF7
0009
000C
0007
0000
000E
0004
000F
0001
0003
FFFC
FFFE
0003
0013
000B
FFEF
FFF6
FFF9
FFFB
FFFC
0014
0005
0011
0010
FFF7
0007
FFEE
FFF0
0003
0013
000F
0004
FFF9
FFF0
0014
FFF2
0014
FFF0
0010
000D
FFF3
0000
FFFA
000E
FFF3
FFF0
FFFE
0000
000B
000C
FFF4
0013
0010
000C
000E
000B
FFFE
000B
0003
0008
FFEE
FFF8
FFF2
FFEB
0001
FFFE
FFF0
FFF6
FFFA
FFFA
0001
FFEF
0009
0011
FFF5
0014
FFF4
FFF8
FFFA
FFFF
FFF4
0014
0003
FFF9
0006
0014
0000
FFF8
000A
FFEC
FFF4
000B
FFED
0002
FFF3
000E
FFFF
FFED
FFED
0013
000E
0001
FFFB
FFEC
FFFB
0002
FFFD
FFF0
FFF7
FFEE
FFFA
FFF4
FFF0
0005
0014
0005
FFF0
FFF9
FFF3
000D
FFFA
FFF2
FFF8
0010
0000
FFFF
FFF7
FFFB
FFFB
FFEC
0012
FFF2
FFEE
FFF1
0011
0015
FFF9
FFFA
000F
FFF0
FFEF
FFF1
FFF3
FFF5
FFFB
0001
0011
000E
0007
0010
FFF0
000A
0004
0007
FFEC
0004
FFEE
FFFB
0011
0013
0005
FFF8
0006
0001
000E
FFFF
FFFB
FFEE
FFF6
FFF7
0012
FFF6
FFFE
FFF0
FFEF
FFF6
FFF3
0007
FFFE
FFF3
FFEC
0003
0004
FFED
0011
FFF7
0009
FFFA
FFFF
FFFD
0015
000D
FFEC
0013
000F
FFF6
FFEB
FFF2
0008
FFF4
0013
0014
000C
0013
0006
0011
000F
000F
FFFA
FFEB
000B
000B
FFFA
0001
0011
FFEE
FFED
0002
0000
FFFC
FFEC
FFF3
FFF9
0009
FFEF
0009
0007
0010
0003
000C
FFFD
FFFD
000F
FFF8
000B
000A
FFF0
0003
FFF1
000E
0002
FFFE
FFF3
000A
FFF8
000C
0001
0008
000B
0014
FFFE
0006
FFF5
0009
FFFC
FFEE
FFFE
000B
FFF1
000C
0005
000B
FFF2
FFFB
000F
FFF6
FFFE
FFF3
0008
0000
0004
FFF9
FFF0
000C
FFFC
0009
0015
FFFF
FFF4
000C
0001
FFF8
000A
FFEF
0004
000C
FFF4
0008
FFFA
FFEC
0009
0003
FFFF
0012
FFFD
FFF4
FFEE
0000
FFEC
000E
FFF6
FFF9
000A
000B
0001
FFF5
0008
FFF6
000E
FFF0
FFFE
FFFB
0011
000D
0005
FFF3
0001
FFFA
0013
FFF8
000F
0013
FFFC
0012
0006
FFFE
FFF0
0004
FFFE
0000
0010
0006
000D
FFFB
FFFB
FFF2
FFFB
FFFC
FFF1
FFEB
FFF8
0006
0001
FFFE
0002
0005
0009
0014
FFF8
000A
0010
0011
FFFD
FFF7
FFEF
FFF5
FFED
000F
FFFC
0014
FFF4
0007
000D
0010
FFFA
FFF3
FFF5
FFEC
FFEB
FFFF
FFFE
000E
FFF6
0006
0000
0009
0014
0012
0008
FFED
0001
FFFF
FFEE
0001
0015
FFEC
000E
0010
0008
0010
FFFC
FFEC
000F
000A
FFF7
0001
FFF5
FFFA
0002
FFF1
0008
FFFC
0014
FFF6
FFEE
FFEB
FFEC
FFEC
FFF3
FFF3
0012
000C
FFFE
000F
FFFF
000E
FFED
FFF0
0014
FFF6
FFF2
FFF8
FFFA
0004
0000
FFF9
000C
FFFE
FFF4
0004
000C
000A
FFFE
0011
0013
FFEB
FFFF
FFFF
FFED
FFFB
000B
FFF3
000E
0001
FFF2
FFF0
0014
0012
0000
FFF7
000F
FFFB
FFFC
FFEB
FFFF
0013
0001
FFF6
FFF0
0011
0011
0014
FFF6
0003
FFFD
0013
0007
FFEE
FFF8
FFEC
FFFB
000E
FFEC
FFFE
0006
000C
0010
000F
0003
0009
FFF6
000C
FFF9
000E
FFF4
000A
0000
0014
FFF4
000E
000A
FFF9
0010
FFEC
FFED
0011
FFF7
FFF1
FFF7
FFED
0009
0012
0007
000F
000C
0011
FFF1
FFEE
0000
0007
0010
0014
FFFA
0009
FFF0
FFEF
0013
FFEE
FFF1
FFF9
0000
0002
0003
0009
FFFB
FFEF
FFED
0015
0014
FFFD
0011
000A
0007
0000
FFF1
0006
0009
FFF4
FFFE
0015
FFFB
FFFF
0013
0015
0007
0007
FFEF
FFF3
0012
0008
FFED
0000
FFFE
FFF1
FFF7
0005
0011
FFF2
0001
FFF7
000B
0001
0011
0013
FFFB
FFFE
0006
000A
000E
0010
0010
FFF0
0004
000E
FFFD
000A
FFEC
FFFB
FFEE
FFF6
000B
FFFA
FFEE
FFF2
0007
0008
FFF9
0009
FFF4
FFF4
FFF3
FFEB
FFF5
0008
FFF6
000B
FFF1
FFF1
FFFD
FFF7
FFFD
0013
0013
000D
000F
FFFC
0005
0002
FFF6
FFF5
FFFE
0007
FFFC
000F
000A
000B
000C
0004
FFF2
0006
FFFC
0005
0013
FFF3
0006
0004
0008
FFFE
000E
0014
000F
0005
FFEB
FFF4
FFFC
FFF0
FFFE
0011
000A
FFFA
FFF2
0012
FFF3
FFEC
000B
0003
FFF7
FFFA
0008
0008
000D
0000
000B
FFF0
FFF7
0003
000E
FFF7
FFF9
FFF8
FFFE
0010
FFF5
0012
0014
FFF8
FFFD
0003
FFFA
0010
FFF1
0014
000E
0015
FFFD
000A
FFF6
FFF5
FFF8
FFEE
0007
FFFD
FFF3
FFF3
FFF7
0009
0002
FFF0
0011
FFFB
000E
FFF8
FFEE
0009
000E
FFED
FFEF
FFEE
FFFD
0012
FFED
FFEF
000B
FFF0
FFF8
FFF3
000A
0007
0014
0002
000F
0010
FFFC
000B
0003
FFFB
FFFF
FFEF
FFF8
FFF9
FFFC
FFF6
FFF8
FFF1
0009
FFF5
0010
000E
0009
0010
FFEE
0002
0011
FFF4
0013
FFF3
FFFF
FFFA
FFFB
0004
0004
FFF6
FFF1
0006
0005
FFF1
000B
000B
FFFE
FFEE
000E
0012
0002
000C
000A
0002
FFF5
000D
000A
FFF9
FFFA
FFFC
0009
FFFE
FFFE
0012
FFFF
FFF6
0005
000A
FFFB
0008
FFF1
0002
FFF6
0006
000F
0013
0009
0010
0015
0008
FFF0
0007
FFF6
0015
000F
FFEE
FFF2
000D
0014
FFF8
0001
FFFA
0005
FFED
000C
0001
FFFB
0012
FFFA
0006
000F
FFED
FFEE
0009
FFFA
FFF2
0010
0009
FFED
000C
000E
000E
FFF3
FFF1
FFED
0002
FFFF
FFF7
FFF0
FFED
FFF3
0008
0006
FFFB
FFED
FFF3
FFFD
FFFC
0005
000B
FFFC
0001
0006
FFF3
FFEE
0008
0004
0007
0001
0008
000D
0013
0003
FFFA
000E
FFFA
FFEC
FFFA
FFF5
FFFF
FFF6
000E
FFF5
000B
0002
000E
0009
0003
FFFD
0000
FFF3
FFFD
0009
0009
0003
FFF6
FFFE
0003
FFFE
0015
0007
0007
FFFA
FFED
0005
0012
0000
0005
0009
FFF5
FFF3
FFFC
0001
0008
0008
FFFC
000C
0009
000A
0008
000B
FFF3
FFF7
0008
000F
FFEF
000D
FFFE
FFFF
FFF4
FFFB
FFF5
0008
0005
0010
FFF4
0015
FFFB
FFF8
0013
FFEC
FFEE
FFF1
FFF9
FFFA
0008
FFFA
FFF8
FFF0
0004
0014
FFF2
FFF5
0004
0015
FFF2
FFF3
0001
000F
000A
0000
FFF4
FFF0
0000
FFED
FFEE
FFFD
000F
0006
0003
0012
0005
FFEF
FFF5
0006
FFFD
0014
000E
FFEB
FFFA
FFFF
FFF9
000C
FFF7
0004
FFF6
FFFD
FFFE
FFF0
000A
0003
0008
0015
0011
FFF4
0004
FFEB
FFF7
FFF8
0006
FFF6
0000
FFF9
FFF9
0001
000A
0002
0001
000D
000F
FFF2
0014
FFF9
0006
FFEB
000E
0015
0013
0005
FFF0
FFF6
FFF7
0013
0011
0005
000B
000F
FFED
000A
000A
0003
0014
0006
0005
FFF3
FFEC
000E
FFF5
FFEC
0004
0001
FFF2
FFF3
0004
000E
0014
FFF8
FFF0
000B
FFF4
FFF0
FFFA
FFF0
FFF6
FFF8
FFF1
FFFD
0007
0015
FFF9
FFF3
FFF8
000E
FFFF
0006
FFEF
FFF2
FFF7
FFFA
0012
0004
FFF0
000B
0013
FFFC
000E
0000
FFFB
000D
0008
0006
FFF5
0006
FFF4
FFF2
0005
000B
FFED
FFEF
0009
FFEE
0006
FFF0
0007
000D
FFF3
FFEE
000C
0009
FFF2
FFED
0008
0008
0001
0001
FFF4
0003
FFFA
FFF5
FFEC
0010
0011
000E
0015
FFED
0008
FFF6
FFF4
0007
0011
FFF6
000D
FFED
FFF9
FFFB
0005
0007
FFF2
FFED
FFF5
FFFA
0011
FFF1
0001
0011
FFF9
0009
0005
FFFA
0006
FFEB
0003
0005
000F
0013
FFF3
FFEF
000E
FFF2
FFF8
FFF1
FFF7
FFF0
FFF7
FFF4
FFFC
000E
0010
FFEF
FFF1
0008
000A
0000
FFEC
FFFE
0014
FFFD
FFF8
FFF8
FFFC
000A
0011
0002
0008
0013
FFEB
FFED
0015
FFF8
FFF0
FFEB
000B
FFF9
FFF0
FFF5
000C
FFF1
FFF8
FFF2
000E
0009
FFFE
FFF3
FFF4
0001
0010
000D
FFEC
0014
0000
FFF7
FFF0
FFF7
FFEC
FFF7
FFFE
FFFC
FFFB
FFFA
0000
000E
FFF0
FFEC
0014
FFF0
FFFC
FFEC
0002
000A
FFED
000B
FFF9
FFEF
000B
FFED
0015
FFF5
0006
FFF5
FFFA
0010
FFEF
FFFC
FFF9
FFFA
FFFD
0010
FFF9
000D
FFF1
FFFB
000B
0015
0002
FFFD
FFFE
000A
0004
000B
FFFA
0011
FFEE
FFEF
0011
FFEF
0008
FFFB
FFF7
FFEE
0001
0007
0010
0013
0008
000A
FFF4
FFEE
FFF7
FFEF
FFFC
0000
0003
0011
FFFE
0003
000D
FFF3
FFFE
0003
0006
FFFA
FFFC
FFF3
FFF6
0006
000D
0005
FFF9
FFED
000C
0013
FFF5
000E
0008
FFFD
0009
FFF7
FFFC
FFEE
FFFF
FFFF
0000
0004
FFF1
0008
0000
0006
FFF5
FFEB
000A
0008
FFEE
FFFB
FFEC
FFFB
FFF8
FFF9
FFFC
000C
0008
FFFC
FFFD
0005
FFFF
FFFA
000A
0002
0015
FFF7
FFF6
0012
FFF6
0010
FFEF
FFFD
0014
FFFC
FFFB
000A
0002
0006
FFF5
0003
000A
FFF4
0011
000E
FFEC
FFF2
FFF6
0003
FFFF
FFFF
0010
FFF8
000B
FFF1
000A
000C
FFEC
0005
FFEB
0003
FFF1
0014
FFFE
FFF1
0013
0008
FFEE
FFF9
FFF1
0013
FFF5
FFEF
FFFD
0004
000A
0012
000F
0000
000E
0012
FFFE
FFF3
0010
FFF2
FFFE
0007
0011
0002
FFF2
FFF7
FFF5
0003
0002
0005
000F
0008
000D
FFEC
000E
0015
000F
000F
0002
FFF2
0003
000C
FFF6
0009
0015
000D
FFF4
FFF1
FFFA
FFF7
000B
0012
FFEF
000C
FFF7
FFFB
FFF3
000F
0007
FFF0
0012
0007
0008
FFF1
FFF6
0009
000D
0008
0013
FFF6
FFF7
000E
FFEF
0013
0006
FFF3
000A
0001
FFF1
FFFA
FFF5
FFF6
FFF9
FFFD
0004
0000
0010
FFEC
FFF2
0013
FFEE
000D
000C
000B
FFFA
0008
FFF2
000D
0006
FFFC
FFFA
FFFC
0011
0013
FFEF
0008
0004
0006
FFF1
0001
0002
FFFD
FFFC
FFFE
FFF0
0013
FFF8
0003
000A
000E
FFF7
0004
FFFE
0009
FFED
FFFA
FFFA
0014
0006
000F
0001
0005
0008
FFFF
0004
FFF8
FFFE
0007
FFFB
FFF5
FFF7
0007
000F
000B
0004
0001
0012
FFF5
0007
FFEB
0004
0014
FFFF
FFEE
0011
FFF7
FFF6
0002
0002
FFF6
0012
FFFE
0013
0005
0006
FFFB
0014
0006
FFED
0013
FFFA
0009
0005
0003
FFEE
FFF9
0011
FFFC
000E
0008
FFEE
0001
FFF0
FFF7
0000
0010
FFED
FFEC
FFEF
0006
0014
0003
0013
000B
0007
0001
FFED
0014
FFF3
0003
0013
0011
FFF7
FFFF
FFED
000D
000E
0000
FFFD
0005
FFF9
0010
FFFA
FFFF
000B
FFF3
FFF9
FFF8
FFED
0001
FFFC
0012
FFFF
000C
FFFF
FFED
0014
FFEC
FFED
FFF1
FFFE
FFFA
FFF7
000B
FFF1
FFF6
0013
0009
FFEE
0000
FFFB
FFED
FFF0
FFF4
0002
000E
FFED
0003
0000
0005
FFF0
FFF0
000E
0009
FFF0
FFFD
FFF2
0011
000F
0005
0000
FFF9
FFF5
0008
0013
0012
FFF9
FFF9
FFF7
0008
000D
FFFC
FFF5
FFFA
0005
FFF0
0004
0002
FFF8
000B
FFF9
0010
000E
FFFB
FFEB
0002
FFF6
000A
0001
000E
FFFD
FFF2
0011
FFFE
FFFE
FFFE
0008
0004
0006
0008
0002
FFF4
0009
FFFF
FFF6
FFF3
0006
000D
0015
0013
FFF9
0008
0014
0006
0009
0007
FFF1
FFF4
000F
FFFE
0011
FFFC
000A
FFEB
FFF5
000C
0005
0001
FFEC
0004
0007
0015
FFFD
0006
FFFE
FFEF
FFED
0004
0009
000D
0010
FFFC
0004
0004
FFF4
FFF3
FFED
0006
FFED
FFFF
0000
0003
FFF5
0008
000C
FFEB
FFFB
FFED
0003
FFEB
0014
0004
FFFA
0013
FFFE
FFEB
FFFB
0003
0013
0014
FFFE
FFED
FFEF
0008
FFF7
FFED
000E
000B
000A
FFF9
0013
FFF1
FFEF
0008
0003
000B
000B
FFFB
000C
000A
FFF4
0011
FFF6
0002
0007
0000
FFF0
0001
000C
FFF4
FFEF
FFF5
FFF8
FFFC
000E
FFF6
0012
0001
FFEC
0015
0012
FFF9
0004
0000
FFFC
0009
FFED
000B
000B
0002
0011
FFF8
FFF6
0013
0003
0014
000D
FFED
FFF3
0012
0006
000C
FFEF
FFFB
FFEF
0015
FFFC
0015
FFF3
FFFD
000A
000E
000E
0004
000D
FFF1
000C
FFFC
0001
FFF7
0010
0004
0012
FFF9
FFF0
FFF3
0013
FFED
FFFE
0006
000F
FFF7
FFF2
000A
FFFB
000D
FFF5
0003
0006
FFF2
000F
FFFA
000D
FFF4
FFEC
FFEB
FFF2
FFED
000B
000B
FFF2
000F
FFF2
FFFC
FFF1
FFFE
FFF3
0005
FFF3
FFFE
0005
FFED
0005
000E
FFEC
000A
FFF0
FFFE
FFEC
FFFF
000D
000F
000C
0014
0010
FFF8
FFF1
FFF0
0001
000A
FFFD
0010
FFFE
FFF8
FFFE
FFF1
FFF6
FFF4
FFED
FFF9
FFF7
000A
FFED
FFFB
FFF2
0013
FFEF
FFF3
FFEE
0007
FFF1
0010
FFFD
FFFF
0008
FFEF
FFF4
0010
0006
000C
000B
FFF3
0009
000F
0002
FFF9
0005
FFF4
0008
0010
0000
FFEB
0014
FFFB
FFFC
000B
0011
FFED
FFFB
000F
0012
000D
0015
FFF6
FFED
FFF4
FFF7
0002
000B
FFFC
0010
FFF7
FFFF
FFF4
0002
0014
0006
FFF9
FFF8
000C
0013
000A
FFFD
000C
FFF1
000A
FFEF
0010
FFEB
FFF6
0008
FFFA
000D
FFF9
0013
0006
FFF8
000C
FFFF
FFFB
0001
000B
FFFB
FFEF
0006
000C
FFFF
FFED
FFFB
0002
FFFC
0007
000A
FFEE
000E
FFED
0010
FFFE
0012
FFF2
FFEF
000B
FFFE
0013
0006
0002
000A
0013
FFFB
0003
FFFD
0001
FFEE
0013
FFED
0007
FFFC
0004
FFFF
0002
000D
FFEF
FFF6
0013
FFF1
000D
FFF3
000B
0009
0011
FFF8
0011
FFEE
FFF6
FFED
0013
FFEC
0006
FFF1
FFF6
FFF6
000E
000F
FFFF
FFFF
0000
000A
0012
FFF4
0005
0000
000F
0015
FFEC
0014
FFF0
FFF8
FFF8
0007
0008
0013
0006
0012
000E
000C
0006
FFEF
FFEC
0015
FFFE
0003
FFEC
000C
0012
0004
0004
FFF0
000A
0003
FFF4
FFF6
0015
FFFC
000F
FFEE
0000
FFEE
000E
000A
000A
0001
FFF4
0009
0006
FFFE
0008
FFF4
FFFA
FFFD
0011
0012
0002
000A
FFEE
000C
FFFE
FFFE
0004
FFEE
0004
0004
0007
0010
FFFB
0010
000D
0001
FFED
0014
FFFA
000F
0013
FFEF
FFF2
FFF9
FFFB
0003
FFFF
0011
FFED
000F
000F
FFF7
FFEF
FFFB
FFEF
FFED
FFED
000F
FFF2
000C
0001
0012
0015
0001
FFFF
FFFE
FFF1
0001
000C
0010
FFFE
FFFF
0009
FFEB
FFED
FFED
FFFC
000D
000C
FFF3
FFFC
FFF8
FFF1
FFEB
0006
000B
0008
FFEF
FFEF
FFFE
000F
0008
0011
0009
000C
FFEC
FFF4
0013
FFF6
0014
FFF7
0001
000D
0003
FFF3
FFEF
FFF0
FFF6
0010
0011
FFEB
FFF3
000E
0013
FFFF
FFEF
000A
FFF4
000A
FFFA
FFFB
FFFB
0014
FFF8
FFF2
0013
FFEE
0010
FFF0
FFEC
0007
FFF2
0007
0003
0002
0010
000F
0005
FFF1
FFFE
000F
FFFE
FFF0
FFF8
0002
FFEF
000B
FFF1
0007
0011
FFEF
0005
0012
0012
0014
FFFD
0007
FFFA
FFF7
0001
0007
0002
0012
FFF0
FFF7
FFFD
0010
FFEE
FFFA
FFF4
0014
000C
FFFC
0000
FFF7
0004
000D
0006
000A
0012
000F
FFF2
0006
0014
000E
0006
FFFB
000E
0004
0001
0001
0002
0010
FFF8
0005
0012
FFEF
FFF3
FFFD
0013
FFFF
000A
FFFE
000A
FFF6
FFF8
0009
FFF2
0014
FFFB
000D
FFF6
FFFF
000A
FFF4
FFF6
FFFB
0012
FFF1
000A
FFEE
FFF1
0000
FFFE
0000
FFEC
000F
0005
0007
000E
FFEF
0002
FFFB
FFEC
FFF8
FFF6
0002
FFF3
FFF8
0000
FFFA
FFEB
FFEE
000C
0002
0008
FFF4
FFF8
0005
000E
FFFB
FFEF
FFF3
FFFF
FFEF
0013
FFFA
FFFD
0015
FFEB
FFFC
0008
0009
FFF0
FFFD
000F
FFF8
0007
000E
FFF6
0002
000A
FFF6
FFF5
0012
FFF5
0003
FFFF
FFF6
FFF0
0005
000A
FFF8
FFF6
FFEE
000B
FFF3
FFF0
FFF0
FFFF
FFFA
FFFE
000D
000A
000F
0002
000B
FFED
0005
0005
0000
0015
0008
0011
000C
0002
000B
FFEC
FFEB
FFF8
000D
FFF1
0015
FFF5
FFFC
0004
FFFB
FFEB
FFEE
0012
FFEF
FFEF
0000
FFF4
0004
000C
0003
FFFD
FFEF
FFF2
FFED
FFF6
0007
000A
0008
FFF8
000A
FFF0
0000
FFEF
000D
FFFA
0000
FFF3
0010
FFEF
0000
FFF0
0001
0014
FFF9
0001
000E
0011
FFED
000D
FFEE
FFFF
0004
0010
0006
FFF6
000C
0001
000E
FFEF
FFFD
FFFF
0007
FFF3
0008
000B
FFF8
FFF1
FFEC
000C
FFEF
0004
000B
FFF0
0015
0015
FFEB
000A
0011
0008
000A
FFEC
0011
FFEE
FFFF
FFF8
FFFE
000F
000C
0005
0008
FFF1
FFFE
FFF3
FFEC
FFEC
000C
FFEB
0013
0011
000F
FFFE
FFEE
0013
FFF8
0008
FFEB
0010
FFED
FFF9
000C
FFF2
FFEE
FFF4
0009
FFEC
0012
FFFD
FFF9
FFFF
FFEE
0003
0010
000D
0009
0007
FFF2
FFF0
FFF4
000A
FFF5
0007
0007
000C
FFFE
FFF8
000C
0014
0005
000B
FFF8
FFF8
000E
FFF4
0001
FFFE
FFF5
0012
FFF5
FFF9
000C
0006
000A
FFF2
FFF6
FFF2
0011
FFFE
0008
FFF6
FFFF
FFEB
FFED
FFF0
FFF3
FFF7
0009
FFEE
FFF6
FFF9
000F
FFF8
0001
0008
FFF9
000E
FFEE
FFF6
0013
000C
000B
0007
0014
0008
FFFB
FFF9
FFEB
000D
000B
0012
0009
FFED
000D
0008
FFFD
FFF7
000F
FFF6
0000
0013
FFF7
0000
FFF4
FFF5
0002
FFF0
FFFC
FFF4
FFED
0007
FFF6
FFF1
FFF9
FFF1
0008
0007
FFEB
0000
FFFA
000D
0003
0006
000A
FFF6
0005
0005
0010
0001
0009
FFF3
000C
FFFD
0002
FFFD
FFFC
FFFE
FFF3
000B
FFF3
FFFA
FFF4
0004
FFFF
0010
FFF6
0001
0006
FFF9
FFF0
0004
FFFD
0002
0000
FFFC
FFF4
FFFD
FFF3
FFFB
0014
FFFE
0004
FFFC
000C
0004
0003
000E
0006
FFEF
0004
FFFC
FFF9
000D
0002
FFEB
FFF4
FFF0
0002
FFF1
FFFF
FFF8
000A
FFF5
0005
FFF6
FFFB
FFF3
FFF5
FFFE
FFF2
0014
FFFA
FFFF
0010
0005
0003
FFF1
FFF6
0013
FFF1
FFFA
0007
0002
FFF0
000C
FFF2
0000
FFEF
0000
FFF8
FFF1
000D
FFFE
FFF2
000A
FFF3
FFF5
FFFB
0008
000F
0003
FFF9
FFEC
0010
0010
0014
000A
FFFE
FFFD
FFFD
0015
0002
0013
FFFC
000C
FFF7
FFF5
FFF0
0001
FFF1
FFF3
0008
0010
FFFE
FFF2
FFEC
0015
FFFE
000F
0015
0001
0006
0000
FFFA
0010
FFF9
FFFA
0014
000D
FFED
0006
FFF5
FFF9
000C
FFEE
000A
FFF8
0015
0003
FFF2
0007
0005
FFFB
FFF8
0014
FFF7
FFFB
000D
FFF7
FFEF
000D
0000
FFF8
FFEF
FFFB
000E
FFEC
FFF9
FFF1
FFF3
FFED
0013
FFF2
0011
FFF0
000B
0008
0006
0008
0008
FFF6
000C
FFFE
FFFA
FFF3
0005
0007
0007
FFF3
FFF2
0012
FFF6
FFEC
FFEF
0006
FFF5
FFFB
FFF6
FFF3
FFEE
FFF4
FFF5
0004
0001
0004
0005
FFEC
0003
FFED
0006
0012
0001
0010
000F
FFFF
000D
FFF3
FFF3
FFFD
0005
FFEE
FFF6
FFED
0001
0005
000B
0004
0003
0015
000C
FFEE
0002
0014
000A
FFF1
FFF8
FFEF
FFF9
0010
FFED
FFF4
0007
0014
FFF5
FFF8
FFFB
0013
000A
FFF5
000B
0005
0003
0004
FFED
FFEF
000F
FFF9
FFFA
FFFB
FFEF
0010
FFFC
FFF9
FFED
FFFF
000B
0013
0000
0006
FFEE
FFEB
FFF1
000A
FFF1
FFF7
FFF6
0008
FFF5
0005
0011
FFFE
0000
000F
FFEC
FFF6
0008
0006
000A
0005
FFF4
FFF6
0003
FFF8
FFF4
FFFA
0008
FFFE
FFFF
000D
FFF2
000E
000E
0011
FFF2
FFFF
0012
0007
FFEE
FFF4
000C
FFF2
0006
0011
FFEC
000E
000E
FFFF
FFF1
FFF2
FFFA
FFF6
0012
FFF1
FFF1
0014
0009
0004
0011
0014
000D
0015
0012
FFF6
FFF5
0008
000A
FFEC
0012
FFED
0000
000B
000B
FFF3
0010
000C
000A
FFF4
FFFD
0001
0006
0002
FFEE
FFF0
000B
FFFC
FFF7
000A
FFF7
FFF8
000D
FFF3
FFEB
FFF8
FFFC
0000
FFF7
0013
000B
0006
FFF7
0001
FFFC
FFF9
0009
FFFE
000E
FFEE
FFFE
FFFB
FFF4
0000
FFF1
0003
0007
0000
0015
0003
0002
FFFC
0006
FFEE
FFFC
FFF5
000F
000D
FFF3
000C
FFF0
0015
FFF9
0009
0015
FFF2
0009
0012
FFF7
FFEC
0005
0011
FFF5
0005
FFF6
FFF4
FFFF
0010
FFFF
000F
FFEC
FFF8
FFF5
000E
FFF3
FFFB
FFEB
FFF9
FFF7
0001
FFFB
0013
FFF7
FFF6
000A
FFF4
FFF9
0007
0008
FFED
FFFD
0010
0008
0014
FFFF
0002
FFF0
FFF7
000F
FFF3
0007
FFFF
000F
FFEE
0012
FFF2
0007
0011
0013
FFEE
0000
FFF5
FFF1
FFFD
0014
FFFA
0014
0009
FFF9
FFFA
000C
000E
FFFD
FFF0
FFF5
FFED
000C
000C
FFEB
0013
FFF3
FFF4
FFF8
000E
0011
000C
FFF4
FFFE
0006
0004
0009
FFF6
FFF8
FFFA
FFF4
000B
000A
FFFC
FFFD
FFFF
FFF1
FFFB
000F
FFF1
FFFE
0005
0011
